00
00
00
00
FF
FF
00
00
00
00
01
01
01
01
01
00
00
00
00
00
00
00
01
00
00
00
02
02
03
03
02
00
00
01
01
02
01
00
00
00
00
00
FF
FF
FE
02
03
02
02
FF
FF
FD
FE
FD
00
00
00
01
FF
00
FF
00
00
FF
03
03
03
03
00
01
03
01
01
FF
FF
01
00
00
00
00
00
FF
FF
00
02
01
01
FD
FD
FD
01
02
04
00
FF
FF
FF
00
00
00
00
01
00
00
01
03
FF
FE
FF
FF
FF
02
02
00
01
FF
00
01
01
00
FF
00
00
00
04
03
00
FE
FE
FD
FF
01
00
FF
01
00
02
01
01
01
00
FF
FE
01
03
04
00
00
FF
FE
02
02
00
00
02
04
02
00
00
FF
FF
FF
02
02
04
05
02
00
00
01
02
01
03
01
01
04
00
00
00
00
01
01
02
FE
02
03
01
03
01
01
02
01
01
03
00
FF
FF
FF
00
00
00
01
00
FF
FF
FE
FF
01
00
00
01
03
03
00
01
01
FF
01
00
00
00
01
01
00
FF
02
03
00
FF
FF
FC
00
02
03
00
01
FF
00
00
00
00
01
00
FF
01
00
00
01
02
00
FF
FF
FF
04
01
02
00
00
00
FF
00
00
00
FE
00
02
01
01
FF
FF
FE
01
FE
05
00
02
00
FF
01
00
00
FF
00
00
00
FF
00
02
03
02
03
02
01
01
01
01
00
00
FF
00
01
FF
FF
00
02
FE
00
01
02
02
FF
FF
03
01
03
00
00
00
00
FF
00
00
FF
FF
05
01
FE
FF
FF
00
01
02
02
01
01
FF
00
00
01
00
FF
00
00
00
03
02
01
02
01
01
00
00
01
01
00
00
00
00
00
00
00
00
00
FF
FF
FF
00
00
00
01
00
00
00
00
00
01
00
FF
01
00
00
01
FF
FF
FF
FF
FF
FF
FF
FE
FE
FF
FF
00
00
00
00
00
00
00
00
00
00
00
00
00
00
00
FF
FF
FF
FF
00
00
00
00
00
01
00
01
00
00
00
FF
00
00
00
00
FE
FF
FF
FF
FF
00
01
00
00
00
00
00
00
00
00
01
00
FF
FF
01
03
03
02
03
03
02
00
00
01
00
00
00
00
00
FF
FF
FF
FF
01
03
00
01
03
06
06
03
01
01
01
00
00
01
00
01
00
01
FF
01
04
02
02
04
04
01
00
02
02
01
FF
00
FF
FF
01
00
00
FF
FE
06
04
01
02
00
00
00
02
FF
00
01
00
00
00
01
00
00
02
FF
01
05
FF
00
02
02
01
00
04
03
FF
01
00
01
FF
00
FF
00
00
FD
00
03
FF
FE
01
00
01
01
02
03
00
FE
00
01
FF
00
00
00
FF
FC
00
01
01
00
01
FF
FF
01
02
03
01
FE
02
01
00
00
FF
FF
FE
00
01
01
FE
FC
FF
00
FF
01
04
00
02
00
01
01
00
FF
00
00
02
00
01
02
01
00
01
01
01
FD
00
02
03
00
01
00
00
01
00
01
01
FE
01
FF
FE
00
FE
00
04
03
01
FE
04
01
00
00
00
00
FF
01
02
FF
00
00
FE
FF
00
00
04
03
06
FD
04
FF
00
00
01
00
FF
01
00
FE
00
FF
FD
00
00
01
02
02
06
FD
04
01
02
00
00
00
00
01
02
FF
00
00
FE
FE
FD
FE
FE
01
03
FE
01
00
FF
00
00
00
00
01
02
00
02
01
00
01
02
03
03
04
02
02
00
00
FF
00
00
00
00
01
00
00
FF
04
03
02
02
FF
00
02
02
02
00
00
00
00
FF
FF
00
01
00
01
FF
00
00
FF
FE
FF
03
02
00
01
02
01
00
00
00
00
01
00
00
01
01
01
FF
FF
FF
01
01
01
01
02
00
00
00
00
00
FF
00
00
01
00
00
02
02
02
02
02
01
01
01
00
FF
00
00
00
00
00
00
00
00
00
01
00
00
FF
00
00
FF
00
00
00
00
00
00
00
00
FF
00
01
FF
FF
FF
00
00
FF
00
FF
FF
00
FE
00
00
00
00
01
01
00
01
00
02
01
02
04
06
03
03
02
00
02
02
02
04
04
04
03
00
00
00
FF
00
FF
01
01
FF
FE
FE
00
FF
FF
00
FE
00
01
02
03
00
00
00
00
FF
00
00
FE
FF
FE
FC
FD
FF
00
FF
FE
00
00
03
03
00
FF
00
00
00
01
FE
01
FF
FD
FF
FF
FD
02
FF
FD
01
02
04
00
01
FF
00
00
01
01
00
03
FF
FF
00
FF
01
03
02
02
01
00
03
00
00
00
01
01
01
01
01
02
00
FE
00
FD
01
03
00
FF
FE
01
03
01
00
00
01
01
01
00
01
00
01
FF
01
01
01
01
01
00
FF
00
01
00
FF
00
00
FF
01
FE
00
01
01
03
00
01
01
03
02
01
FE
FE
02
00
00
00
00
00
00
FE
01
00
FF
00
FF
00
00
03
01
FE
FF
FF
01
00
00
00
00
01
01
FF
00
00
FF
FF
FE
FF
00
01
00
00
00
01
00
00
00
00
00
01
01
00
01
00
FE
FF
FE
00
FF
00
01
02
00
02
00
00
00
00
00
01
00
00
FE
00
FE
FF
00
FF
00
01
01
FF
FF
01
00
01
00
01
00
00
01
01
00
FF
FF
FF
01
02
02
02
01
FF
FF
01
00
00
00
00
01
00
01
00
00
FF
FF
FF
02
02
02
01
01
00
00
02
01
00
00
00
00
00
00
FF
00
01
01
FF
00
00
00
01
FF
01
00
02
00
00
00
00
01
FF
FF
00
FF
00
01
FF
00
01
01
00
00
00
01
02
00
01
FF
FF
FF
00
00
FF
00
00
01
01
00
01
00
00
00
00
00
01
00
00
00
00
FF
00
00
00
00
00
00
01
01
01
02
01
00
00
01
01
FF
00
01
00
FF
00
00
00
00
00
00
00
01
02
02
00
00
00
FF
FF
FF
FF
FF
01
00
01
00
00
00
00
00
00
00
FF
01
FE
FE
02
02
03
03
02
02
01
01
00
01
00
01
FF
00
02
02
00
02
01
FE
00
FF
FF
01
01
01
00
00
00
00
FF
FF
03
02
FE
03
00
04
04
02
02
02
02
01
02
00
00
01
FF
FF
FF
00
02
FB
00
03
FF
02
04
FC
FD
00
00
FE
01
FF
00
00
FF
00
00
01
00
FF
02
02
00
01
00
FE
FC
FD
01
FE
01
FF
01
00
FF
01
01
04
00
FF
FE
03
03
FF
00
02
02
FF
01
00
01
01
00
FF
00
01
00
03
03
01
FF
05
01
00
00
02
03
00
FE
01
02
00
00
00
00
00
FF
00
01
05
06
04
01
FE
02
02
03
02
FE
00
02
00
01
01
FF
01
FE
FD
02
02
FE
03
01
01
04
01
FD
03
03
02
03
01
FF
01
01
02
00
02
02
FD
FE
FF
FD
FE
02
FD
00
02
00
04
00
00
00
00
FF
00
01
01
00
00
00
02
01
FF
FF
FF
00
06
02
01
FF
FF
00
00
FF
FE
FF
00
00
01
03
03
01
00
01
00
FF
05
FD
01
00
01
00
00
00
FE
FD
FF
01
00
02
02
02
03
05
01
FF
03
00
01
00
00
01
00
00
00
FE
FD
FF
00
00
00
FF
00
FE
FE
00
02
00
02
00
01
00
00
FF
00
00
02
05
FF
01
01
00
FF
00
00
FF
FE
00
00
01
00
FF
FF
FF
FF
FF
FE
04
01
00
00
01
00
FE
FD
FD
01
00
01
00
00
01
00
00
00
FF
FF
FF
FD
FE
FD
FD
FD
FE
FF
FF
FF
FF
00
00
00
00
00
00
00
FF
FE
FE
FE
FF
FF
FF
FF
00
00
FF
FF
FF
00
00
FF
00
01
00
00
00
00
FF
FE
00
FF
FF
FF
FF
FF
00
00
00
00
00
01
00
00
01
01
FF
00
01
00
00
00
01
01
00
00
00
FF
00
01
FF
00
00
00
00
00
01
00
01
FE
01
FF
FE
FF
FF
00
FF
FF
00
FF
01
00
00
FF
00
FF
00
01
FF
FE
00
FE
FF
01
01
FF
FF
FF
FE
00
FF
00
00
01
00
00
02
00
02
02
FF
01
02
03
00
01
00
00
FE
FF
00
00
00
FF
01
01
00
00
04
FE
02
03
03
01
FE
FE
FE
FF
00
FE
01
FF
00
FF
00
00
FE
02
FF
01
02
03
02
01
FD
FF
FF
FE
00
FE
FF
00
FF
00
FF
00
01
02
01
01
03
01
02
FF
FE
FE
FE
FE
00
FE
00
00
00
00
01
01
02
02
FE
00
02
01
02
FF
FE
FF
00
00
FE
FF
01
00
00
FF
00
FF
03
02
FF
00
04
00
02
FE
FE
FE
FF
FE
FE
FF
00
00
01
00
FF
FE
03
01
02
01
FE
FE
FF
FB
FF
FD
FC
FD
FF
00
00
00
00
00
00
01
03
01
02
01
03
04
02
00
FF
FF
FF
FF
FF
00
00
00
00
FF
FF
01
03
02
00
FF
01
01
FF
01
FF
FF
02
00
00
01
00
01
00
00
FF
00
01
00
FD
FF
01
02
00
FF
00
FF
01
FE
FF
00
00
00
FF
00
00
00
01
02
00
00
02
01
00
00
00
FE
00
FF
FF
00
01
01
FF
00
00
01
FF
FF
02
04
03
FF
00
00
00
00
00
FF
FF
FF
00
00
00
00
00
01
01
FF
FF
02
04
00
01
FF
01
03
00
00
FF
00
00
00
FF
00
00
FF
04
01
FF
01
02
00
01
FF
00
FF
00
00
01
00
00
00
00
FF
00
FF
FE
00
01
02
02
01
02
00
01
FE
00
01
00
00
FF
00
00
00
00
00
00
FF
00
FF
FE
FE
00
00
00
01
02
FF
00
FF
00
01
00
00
00
00
00
00
01
01
01
01
01
01
01
01
00
00
00
00
00
00
01
00
00
00
00
FF
00
00
00
01
01
00
01
00
00
01
00
00
00
00
00
00
00
00
00
FF
FF
00
00
02
01
02
FF
00
FF
FF
FE
FE
FF
FF
00
00
00
01
00
01
02
04
04
03
02
02
FD
02
04
01
01
00
FF
00
00
FF
01
00
01
02
01
01
FD
00
FD
00
FF
FD
01
00
FF
FF
00
FF
00
00
01
01
02
02
01
02
03
01
FE
FE
01
00
05
03
00
02
FF
FF
01
00
FF
00
03
01
00
01
03
FE
05
03
03
00
03
06
00
02
FF
00
00
00
01
FF
00
FD
02
05
04
02
02
02
04
01
02
05
01
01
FF
00
01
01
00
02
02
01
01
FF
02
01
01
01
04
03
02
05
04
00
FE
00
00
00
00
02
02
00
06
04
03
FF
01
00
00
02
02
03
03
01
FF
00
00
01
01
00
01
03
04
03
03
02
02
01
00
02
06
02
03
01
00
00
00
00
00
00
00
03
04
02
01
00
FF
FE
FF
03
04
FE
05
01
00
00
FF
00
00
00
00
02
02
02
04
03
01
01
01
01
00
FE
01
00
00
00
00
01
00
FF
01
03
FF
FE
FF
FF
FF
FE
FF
02
FE
00
03
00
00
00
00
FF
FF
00
01
01
FD
00
FF
FD
FD
FD
FD
01
FE
01
FF
FF
00
00
FF
01
00
00
02
04
FF
01
03
00
FF
FF
02
04
FC
FF
00
FF
FF
FF
FF
00
FF
FE
02
02
FD
FD
FE
FF
FF
00
FF
FF
FE
01
01
00
00
01
00
00
01
00
FF
01
01
FD
FF
FF
FF
FF
FE
01
02
00
FF
00
FF
00
00
01
00
FF
00
FF
01
00
FF
00
FF
01
01
02
01
FF
00
00
00
01
01
01
00
00
00
01
00
01
01
01
02
01
01
00
01
00
FF
00
00
00
00
00
00
FF
00
00
FF
FF
00
00
00
FF
00
FF
00
00
FF
00
00
00
00
00
00
00
00
00
FF
00
00
FF
FF
FF
00
FF
FF
00
00
00
00
00
FF
FF
00
01
00
00
01
00
FF
FE
00
00
02
01
01
00
00
FF
00
00
00
00
00
FF
00
02
01
FE
00
02
02
FF
FC
FE
FE
FF
FF
FF
00
FF
FF
FF
FF
00
01
FF
FE
FE
02
01
01
02
03
04
01
FF
FE
FE
00
00
00
01
02
03
FF
FE
01
02
03
02
FF
FE
00
02
FF
00
01
FE
FF
00
01
00
00
00
FE
FE
01
04
01
FE
02
FF
FD
02
FF
00
FF
FE
01
00
FF
00
00
FF
FC
02
04
02
02
00
00
FE
FD
02
00
FF
00
FC
00
00
00
00
00
FF
FF
03
03
00
02
FF
FF
FC
FE
03
FF
00
FF
FD
01
01
01
00
FF
FE
02
FE
04
03
02
FC
FE
FE
FF
04
FF
FE
01
FF
FF
01
01
00
00
FF
03
00
03
04
01
FE
00
FD
00
01
FF
02
04
01
01
00
00
00
00
FE
02
FF
FF
FF
00
00
00
FE
00
01
02
FF
00
00
00
00
01
00
FF
00
02
00
01
00
02
02
01
FF
FF
01
02
FC
00
00
00
00
00
00
FF
FF
00
00
FF
03
04
05
02
00
FF
00
FC
FD
00
00
00
00
00
00
FF
FF
00
FF
01
02
00
03
01
02
02
FF
FF
01
03
02
01
FF
00
01
FF
00
00
00
01
02
01
02
00
FF
FC
FF
FF
02
04
03
02
02
01
00
FE
FF
03
02
FF
04
02
02
01
00
FF
02
00
02
00
00
00
00
00
00
01
FF
02
02
00
00
01
00
FE
FD
FD
01
00
02
01
01
01
02
01
00
00
00
FE
00
02
03
01
00
00
FF
00
00
01
01
FF
00
00
00
00
00
FF
00
00
FF
FF
FF
00
FF
00
00
00
00
00
00
01
00
00
00
00
01
00
00
00
00
00
00
00
FF
FF
00
00
00
00
00
00
00
00
00
00
00
00
00
00
00
00
01
FF
00
FF
FF
00
00
00
00
00
FF
00
00
00
FF
00
00
00
00
00
01
00
FF
02
00
04
04
00
01
00
00
00
00
00
00
00
00
00
FE
FE
FD
00
01
02
02
03
03
01
FF
00
FF
00
00
00
FF
00
00
01
FE
FB
00
08
01
05
01
00
01
01
00
FE
FF
00
00
00
00
00
00
FF
FD
01
07
00
FE
04
01
00
02
00
FE
FF
FF
00
00
00
00
FF
00
FF
FE
05
00
FE
FF
FC
FE
00
02
00
FF
00
FF
02
00
00
FF
FF
FE
FF
FF
00
FE
FE
FE
FF
00
01
01
00
FE
FE
FE
02
00
00
00
00
FE
FE
FD
02
00
01
FE
01
00
01
FE
FD
FE
FF
00
00
00
01
FF
FF
FF
00
01
01
FD
FE
04
03
05
02
FF
FC
FE
01
FF
FF
00
01
00
00
FF
02
FE
FE
00
00
00
01
06
05
03
FF
FF
FE
FE
01
00
00
01
00
00
01
FE
FC
FF
FE
00
01
03
00
06
02
01
FD
FE
00
00
FF
FF
01
00
02
FD
FF
00
00
01
04
03
03
02
02
FD
FF
00
00
00
00
01
00
00
03
FD
03
01
02
01
02
03
01
01
00
FD
00
00
00
00
00
01
00
03
05
02
06
01
01
02
02
03
01
01
02
FF
02
01
00
FF
00
00
01
00
02
FF
02
FD
FD
00
00
00
FC
FE
02
02
02
02
01
02
01
00
01
01
00
01
02
04
03
01
00
02
02
03
04
02
01
00
00
00
FF
00
00
01
00
FF
01
01
05
02
01
02
03
05
00
01
01
02
02
01
01
00
01
00
02
02
FF
FF
03
05
05
04
02
00
00
00
00
01
00
FF
00
00
00
00
00
01
02
01
01
00
FE
FF
00
00
00
00
FF
00
00
00
00
00
FF
00
00
00
FF
FF
FF
FF
FE
FE
FF
00
FF
00
00
FF
00
00
00
