F6
FD
F2
FC
0A
FC
0D
F8
FE
04
F7
FC
14
F9
F1
FA
0D
0C
F7
FD
F9
03
F4
07
FF
EF
FB
02
F7
01
FD
15
0C
FB
FE
FE
08
0A
02
FB
0E
08
0C
0E
F4
FD
FC
F7
F8
01
0C
0C
04
FC
F6
0B
F6
F9
0E
00
FD
01
0B
FE
FF
02
F8
00
F1
03
12
F7
FC
06
F9
F5
FB
01
08
0B
